0110011101100110110011100110110001110000001000000000010010000000000101110111000100010000000000010110110000010011001000100001010000001011001111101110011110110111001100100000110111101100110111101100
0010001111001001111001001110001110000100010001010010010001100001010001000101010010000110000101000000010101001011101101010100010001000000010110010001001001110000101110001110011011000110011001101110
1110010110011000110001100010110001111111111100110000010111001111111011100010000111000101111111001001000011001100001100010011001111011110101111100111011111101011101110111110110000000001110011101110
1100100011001011000101100011001110111111101100000000010011111111111010000001011101011111110001111111111100000110101110111110111010110001010010111011101111110111000001001011111101111110001000000101
1110110111100110011010101000100010101000010000000001001100010110000001000000000101100001100100100101000100110000111011111111111111111111101001001000110001100111100001010100010001001110111011101110
0000010001111110011011101100011000000000110011111011101101000010000011111110111011101110111111101110111110001110111011111110111011000001100101001111101110110110011011110101110011111001111001001010
0111100000010001000110010001100110000000000001111110011110001001000100011100110010001110000100000001101100100011010001100010000100110111010100010001111111011111011001001111000110011001100111010000
0011111111100011000100111101100010111010110011101010010010111011101111110011010101011111111111001100100000110000110101000100000001111111010111101000000001000100010001000011000100110011000101000110
0011000001111111011011100100000001000001001100111000100110000010001000011011001100111010111110100001001111101010101000010001001111110100100101000010001010110011000111000110010011001010011100100001
1110000100111011101000101101011101110101101100110100010010000000000110111011000000000010001000110011000101010101001010001111101000010000001111001101110011001100000100001001011100110001000110111011
